{
    "\n": 0,
    " ": 1,
    "!": 2,
    "\"": 3,
    "&": 4,
    "'": 5,
    "(": 6,
    ")": 7,
    "*": 8,
    ",": 9,
    "-": 10,
    ".": 11,
    "/": 12,
    "0": 13,
    "1": 14,
    "2": 15,
    "3": 16,
    "4": 17,
    "5": 18,
    "6": 19,
    "7": 20,
    "8": 21,
    "9": 22,
    ":": 23,
    ";": 24,
    "<": 25,
    "=": 26,
    ">": 27,
    "?": 28,
    "A": 29,
    "B": 30,
    "C": 31,
    "D": 32,
    "E": 33,
    "F": 34,
    "G": 35,
    "H": 36,
    "I": 37,
    "J": 38,
    "K": 39,
    "L": 40,
    "M": 41,
    "N": 42,
    "O": 43,
    "P": 44,
    "Q": 45,
    "R": 46,
    "S": 47,
    "T": 48,
    "U": 49,
    "V": 50,
    "W": 51,
    "X": 52,
    "Y": 53,
    "Z": 54,
    "[": 55,
    "\\": 56,
    "]": 57,
    "^": 58,
    "_": 59,
    "`": 60,
    "a": 61,
    "b": 62,
    "c": 63,
    "d": 64,
    "e": 65,
    "f": 66,
    "g": 67,
    "h": 68,
    "i": 69,
    "j": 70,
    "k": 71,
    "l": 72,
    "m": 73,
    "n": 74,
    "o": 75,
    "p": 76,
    "q": 77,
    "r": 78,
    "s": 79,
    "t": 80,
    "u": 81,
    "v": 82,
    "w": 83,
    "x": 84,
    "y": 85,
    "z": 86,
    "{": 87,
    "|": 88,
    "}": 89,
    "\u00a3": 90,
    "\u00a6": 91,
    "\u00ab": 92,
    "\u00b0": 93,
    "\u00bb": 94,
    "\u00e9": 95,
    "\u00fc": 96,
    "\u02dc": 97,
    "\u2013": 98,
    "\u2014": 99,
    "\u2018": 100,
    "\u2019": 101,
    "\u201c": 102,
    "\u201d": 103,
    "\u2022": 104,
    "\u2026": 105,
    "e ": 106,
    "d ": 107,
    "th": 108,
    "t ": 109,
    "in": 110,
    "s ": 111,
    "er": 112,
    ", ": 113,
    "an": 114,
    "y ": 115,
    "ou": 116,
    "ar": 117,
    "on": 118,
    "the ": 119,
    "ed ": 120,
    "ing": 121,
    "o ": 122,
    "\n\n": 123,
    "or": 124,
    ". ": 125,
    "ing ": 126,
    "en": 127,
    "to ": 128,
    " s": 129,
    "ll": 130,
    "hi": 131,
    "ha": 132,
    "and ": 133,
    "f ": 134,
    "ea": 135,
    "wa": 136,
    "he ": 137,
    "er ": 138,
    "st": 139,
    "ow": 140,
    "of ": 141,
    "arr": 142,
    "ai": 143,
    ".\n\n": 144,
    "le": 145,
    "a ": 146,
    "Harr": 147,
    "at ": 148,
    "oo": 149,
    "re": 150,
    "gh": 151,
    "ri": 152,
    "ch": 153,
    " the ": 154,
    "was ": 155,
    "om": 156,
    "you": 157,
    "his ": 158,
    "it": 159,
    "be": 160,
    "ac": 161,
    "aid ": 162,
    "k ": 163,
    "the": 164,
    "ll ": 165,
    "en ": 166,
    "se": 167,
    "on ": 168,
    "at": 169,
    "Harry ": 170,
    "wi": 171,
    "li": 172,
    "in ": 173,
    " said ": 174,
    "ly ": 175,
    "ag": 176,
    "m ": 177,
    "st ": 178,
    "\u201d\n\n": 179,
    "ve ": 180,
    "had ": 181,
    "or ": 182,
    "ed": 183,
    "ur": 184,
    "mi": 185,
    "y, ": 186,
    "I ": 187,
    "es": 188,
    "ro": 189,
    "al": 190,
    "un": 191,
    "ere ": 192,
    "that ": 193,
    "e, ": 194,
    "no": 195,
    "it ": 196,
    "ic": 197,
    "ld ": 198,
    "he": 199,
    "le ": 200,
    ".\n\n\u201c": 201,
    "up": 202,
    "th ": 203,
    "ir": 204,
    "you ": 205,
    "wh": 206,
    "one ": 207,
    "ev": 208,
    "rea": 209,
    "as ": 210,
    "di": 211,
    "\u2019s ": 212,
    "ut ": 213,
    ",\u201d": 214,
    "out ": 215,
    "si": 216,
    "ab": 217,
    "sh": 218,
    "ti": 219,
    "'s ": 220,
    "an ": 221,
    "la": 222,
    "loo": 223,
    "s, ": 224,
    "mb": 225,
    "es ": 226,
    "ough": 227,
    "se ": 228,
    ". \u201c": 229,
    "ow ": 230,
    "ent": 231,
    "pp": 232,
    "for": 233,
    "d, ": 234,
    "ked ": 235,
    "oun": 236,
    "tt": 237,
    "fr": 238,
    "Her": 239,
    "\u201d\n\n\u201c": 240,
    "He ": 241,
    "is ": 242,
    "ne": 243,
    "ould ": 244,
    "Hermi": 245,
    "go": 246,
    "with ": 247,
    "el": 248,
    "ch ": 249,
    "em": 250,
    "ca": 251,
    "lo": 252,
    "ke ": 253,
    "ed to ": 254,
    "king ": 255,
    "of the ": 256,
    "ld": 257,
    "me ": 258,
    "not ": 259,
    "be ": 260,
    ",\u201d said ": 261,
    "him": 262,
    "op": 263,
    "ma": 264,
    "ly": 265,
    "sp": 266,
    "hat ": 267,
    "ov": 268,
    "tr": 269,
    ". T": 270,
    "they ": 271,
    "but ": 272,
    "n ": 273,
    "of": 274,
    "were ": 275,
    "all": 276,
    "ge": 277,
    "for ": 278,
    "me": 279,
    "r ": 280,
    "her ": 281,
    "\u2019t ": 282,
    "from": 283,
    "dor": 284,
    "ear": 285,
    "have ": 286,
    "umb": 287,
    "Harry": 288,
    ", and ": 289,
    "ght": 290,
    "ther": 291,
    "po": 292,
    "ght ": 293,
    "to the ": 294,
    "fe": 295,
    "and": 296,
    "w ": 297,
    "'\n\n": 298,
    "do": 299,
    "bac": 300,
    "bo": 301,
    "in the ": 302,
    "de ": 303,
    "him ": 304,
    "ain": 305,
    "ell": 306,
    "sa": 307,
    "all ": 308,
    "qu": 309,
    "ent ": 310,
    " he ": 311,
    "ep": 312,
    "as": 313,
    "et": 314,
    "whi": 315,
    "com": 316,
    "umble": 317,
    "s. ": 318,
    "umbledor": 319,
    "Dumbledor": 320,
    "ex": 321,
    "to": 322,
    "kn": 323,
    "ver": 324,
    "Ron": 325,
    "'t ": 326,
    "though": 327,
    "ec": 328,
    "ound ": 329,
    "Hermione ": 330,
    "ther ": 331,
    "na": 332,
    "ust ": 333,
    "ard ": 334,
    "dow": 335,
    "Ron ": 336,
    "ud": 337,
    "up ": 338,
    "ing to ": 339,
    "ir ": 340,
    "ted ": 341,
    ",'": 342,
    "ed, ": 343,
    "us": 344,
    ".\n\n'": 345,
    "l ": 346,
    "You": 347,
    "gr": 348,
    ". He ": 349,
    "what ": 350,
    "ever": 351,
    "con": 352,
    "fi": 353,
    "a s": 354,
    "wor": 355,
    "g ": 356,
    "- ": 357,
    "been ": 358,
    "ce ": 359,
    "\u201d ": 360,
    "hea": 361,
    "her": 362,
    "could ": 363,
    "ter": 364,
    "ck": 365,
    "Harry, ": 366,
    "mp": 367,
    "from ": 368,
    "thing ": 369,
    "who ": 370,
    "id": 371,
    "back ": 372,
    "ess": 373,
    "ey": 374,
    "we": 375,
    "us ": 376,
    "ard": 377,
    "? ": 378,
    "tur": 379,
    "mor": 380,
    "by ": 381,
    "roo": 382,
    "art": 383,
    "on the ": 384,
    "ff": 385,
    "pl": 386,
    "ed the ": 387,
    "fu": 388,
    "; ": 389,
    "ge ": 390,
    "fac": 391,
    "sle": 392,
    "ome": 393,
    "ad": 394,
    "mo": 395,
    "like ": 396,
    "at the ": 397,
    "An": 398,
    "ind ": 399,
    "one": 400,
    "looked ": 401,
    "them ": 402,
    "about ": 403,
    "Pro": 404,
    "their ": 405,
    "are ": 406,
    "thin": 407,
    "ati": 408,
    "over ": 409,
    "The ": 410,
    "ra": 411,
    "ss ": 412,
    "n\u2019t ": 413,
    "this ": 414,
    "ta": 415,
    "ill": 416,
    "ho": 417,
    "sel": 418,
    "\u2026 ": 419,
    "would ": 420,
    "fo": 421,
    "ru": 422,
    "ss": 423,
    "\u2019\n\n": 424,
    "al ": 425,
    "ly, ": 426,
    ".\u201d\n\n": 427,
    "re ": 428,
    "them": 429,
    ",' said ": 430,
    "mu": 431,
    "very ": 432,
    "just ": 433,
    "ter ": 434,
    "fess": 435,
    "he was ": 436,
    "sc": 437,
    "te": 438,
    "Profess": 439,
    "got ": 440,
    "Hag": 441,
    "Hagri": 442,
    "bl": 443,
    "wan": 444,
    "tter": 445,
    "our": 446,
    "vo": 447,
    "'\n\n'": 448,
    "we ": 449,
    "et ": 450,
    "ting ": 451,
    "so ": 452,
    ".\u201d\n\n\u201c": 453,
    "de": 454,
    "ing, ": 455,
    "again": 456,
    "pe": 457,
    "into ": 458,
    "if ": 459,
    "It ": 460,
    "t, ": 461,
    "ang": 462,
    "da": 463,
    "thr": 464,
    "! ": 465,
    "did ": 466,
    "Professor ": 467,
    "der": 468,
    "And ": 469,
    "Mr": 470,
    "s and ": 471,
    "Sna": 472,
    "\u201d said ": 473,
    "my ": 474,
    "But ": 475,
    "here ": 476,
    "Dumbledore ": 477,
    "sti": 478,
    "around ": 479,
    "vi": 480,
    "pu": 481,
    "led ": 482,
    "your ": 483,
    ". '": 484,
    "with": 485,
    "ar ": 486,
    "way ": 487,
    "Po": 488,
    "he had ": 489,
    "lu": 490,
    "ould": 491,
    "str": 492,
    "' ": 493,
    "su": 494,
    "pre": 495,
    "fa": 496,
    "gg": 497,
    "Wea": 498,
    "dy ": 499,
    "ever ": 500,
    "do ": 501,
    "turn": 502,
    ". The ": 503,
    "Weasle": 504,
    "n't ": 505,
    "lit": 506,
    "looking ": 507,
    "?\u201d\n\n\u201c": 508,
    ".\n\n\u2018": 509,
    "per": 510,
    "don": 511,
    "You ": 512,
    "I\u2019": 513,
    "ood ": 514,
    "ke": 515,
    "ing the ": 516,
    "more ": 517,
    "\u2019 ": 518,
    "get ": 519,
    "\u2014 ": 520,
    " st": 521,
    "when ": 522,
    "hat": 523,
    "lea": 524,
    "voic": 525,
    "any": 526,
    "off ": 527,
    "clo": 528,
    "there ": 529,
    "said ": 530,
    "gi": 531,
    "co": 532,
    "ind": 533,
    "sai": 534,
    "through": 535,
    ". . ": 536,
    "no ": 537,
    "side ": 538,
    ", but ": 539,
    "now": 540,
    "ts ": 541,
    "down ": 542,
    "into the ": 543,
    "ong": 544,
    "emor": 545,
    ". Harry ": 546,
    "cau": 547,
    "know ": 548,
    "did": 549,
    "ga": 550,
    "hey ": 551,
    "ni": 552,
    "tw": 553,
    "sed ": 554,
    " she ": 555,
    "es, ": 556,
    "af": 557,
    "ini": 558,
    "p ": 559,
    "any ": 560,
    "befor": 561,
    "inn": 562,
    "old": 563,
    "Mal": 564,
    "think ": 565,
    "too": 566,
    "ul": 567,
    "ob": 568,
    "pped ": 569,
    "ous": 570,
    "I'": 571,
    "ce": 572,
    "ome ": 573,
    "ound": 574,
    "pa": 575,
    "pro": 576,
    "Malfo": 577,
    "fir": 578,
    "she ": 579,
    "s of ": 580,
    "end": 581,
    "\u2019 said ": 582,
    "one, ": 583,
    "ling ": 584,
    "some": 585,
    "know": 586,
    "way": 587,
    "other ": 588,
    "t to ": 589,
    "Snap": 590,
    "hand": 591,
    "out": 592,
    "lly ": 593,
    "er, ": 594,
    "No": 595,
    "ry": 596,
    "t of ": 597,
    "tch": 598,
    "able ": 599,
    "from the ": 600,
    "where ": 601,
    "ered ": 602,
    "only ": 603,
    "k, ": 604,
    "a b": 605,
    "og": 606,
    ". \u2018": 607,
    "Vold": 608,
    "than ": 609,
    "Voldemor": 610,
    "which ": 611,
    "that": 612,
    "ers ": 613,
    "Si": 614,
    "room": 615,
    "on, ": 616,
    "ong ": 617,
    "sur": 618,
    "how ": 619,
    "happ": 620,
    "tow": 621,
    "kne": 622,
    "see ": 623,
    "ell, ": 624,
    "air": 625,
    "Wh": 626,
    "now ": 627,
    "app": 628,
    "it was ": 629,
    ",\u201d ": 630,
    "eyes ": 631,
    ". A": 632,
    ". S": 633,
    "Hermione": 634,
    "will ": 635,
    "ous ": 636,
    "der ": 637,
    "still ": 638,
    "ed and ": 639,
    "can": 640,
    "tter ": 641,
    "star": 642,
    "ks ": 643,
    "is": 644,
    "Siri": 645,
    "\u2019\n\n\u2018": 646,
    "come ": 647,
    "thing": 648,
    "before ": 649,
    "himsel": 650,
    "then ": 651,
    "h, ": 652,
    "beh": 653,
    "arm": 654,
    "min": 655,
    "in a ": 656,
    "Ron, ": 657,
    ": ": 658,
    " se": 659,
    "cor": 660,
    "right": 661,
    "br": 662,
    "lled ": 663,
    "\u2013 ": 664,
    "year": 665,
    "par": 666,
    "il": 667,
    "in his ": 668,
    "tle ": 669,
    "What ": 670,
    "Hog": 671,
    "time ": 672,
    "Snape ": 673,
    "told ": 674,
    "behind ": 675,
    "poin": 676,
    "off": 677,
    "?\u201d ": 678,
    "light": 679,
    "thought ": 680,
    "of his ": 681,
    "agic": 682,
    "hou": 683,
    "mom": 684,
    "Dumbledore": 685,
    "tion": 686,
    "as though": 687,
    "look ": 688,
    "ving ": 689,
    "as he ": 690,
    "ble ": 691,
    "go ": 692,
    "dar": 693,
    "face ": 694,
    "rid": 695,
    "ack ": 696,
    "said, ": 697,
    "can ": 698,
    "Hagrid ": 699,
    "seem": 700,
    "wand ": 701,
    "Hermione, ": 702,
    "?\u201d said ": 703,
    "low": 704,
    "wiz": 705,
    "it, ": 706,
    "en, ": 707,
    "tic": 708,
    "down": 709,
    "head": 710,
    "after ": 711,
    "head ": 712,
    "cla": 713,
    "lat": 714,
    "dr": 715,
    "brea": 716,
    "ssi": 717,
    "Mr. ": 718,
    "tea": 719,
    "\u2019re ": 720,
    "ood": 721,
    "end ": 722,
    "most ": 723,
    "him, ": 724,
    "'re ": 725,
    "going to ": 726,
    "ree ": 727,
    "cha": 728,
    "lef": 729,
    "door": 730,
    "right ": 731,
    "came ": 732,
    ". H": 733,
    "made ": 734,
    "tri": 735,
    "and the ": 736,
    "sh ": 737,
    "cause ": 738,
    "mm": 739,
    "little ": 740,
    "lar": 741,
    "le, ": 742,
    "peop": 743,
    "ep ": 744,
    "Weasley ": 745,
    "plac": 746,
    "heard ": 747,
    "ack": 748,
    "idd": 749,
    "att": 750,
    "des": 751,
    "its ": 752,
    "man": 753,
    "our ": 754,
    "last ": 755,
    "room ": 756,
    "fel": 757,
    "exp": 758,
    "Potter": 759,
    "ing his ": 760,
    "itch": 761,
    "' said ": 762,
    "tal": 763,
    "wart": 764,
    "Mini": 765,
    "had been ": 766,
    "ck ": 767,
    "ick": 768,
    "asked ": 769,
    "for the ": 770,
    "It was ": 771,
    "Hogwart": 772,
    ",\u2019 said ": 773,
    "cr": 774,
    "sit": 775,
    "\n\n\n\n": 776,
    "ven": 777,
    "ards ": 778,
    "never ": 779,
    "qui": 780,
    "gu": 781,
    "other": 782,
    "ely ": 783,
    "sw": 784,
    "Mrs. ": 785,
    "!\u201d ": 786,
    "mov": 787,
    "even ": 788,
    "shed ": 789,
    "felt ": 790,
    "much ": 791,
    "every": 792,
    " sh": 793,
    "flo": 794,
    "so": 795,
    "me, ": 796,
    "ying ": 797,
    "fron": 798,
    "Well, ": 799,
    "hel": 800,
    "own ": 801,
    "wal": 802,
    "sha": 803,
    "tion ": 804,
    "knew ": 805,
    "!\u201d\n\n": 806,
    "tell ": 807,
    "am": 808,
    "h ": 809,
    "tu": 810,
    "ly. \u201c": 811,
    "here": 812,
    "through the ": 813,
    "won": 814,
    "se, ": 815,
    "\u2019d ": 816,
    "reat ": 817,
    "Mc": 818,
    "Lup": 819,
    "llow": 820,
    "reach": 821,
    "of s": 822,
    "ant ": 823,
    "Mu": 824,
    "Ge": 825,
    ". I ": 826,
    "feel": 827,
    "eath ": 828,
    "open": 829,
    "saw ": 830,
    "ally ": 831,
    "dd": 832,
    "cle": 833,
    "cont": 834,
    "turned ": 835,
    "emp": 836,
    "car": 837,
    "did not ": 838,
    "op ": 839,
    "ved ": 840,
    "two ": 841,
    "?\u201d\n\n": 842,
    "Qu": 843,
    "gre": 844,
    "don\u2019t ": 845,
    ".\n\nHarry ": 846,
    "It": 847,
    "Geor": 848,
    "lou": 849,
    "evill": 850,
    "let ": 851,
    "has ": 852,
    "anc": 853,
    "Nevill": 854,
    "out of the ": 855,
    "watch": 856,
    "age ": 857,
    "ation ": 858,
    "back": 859,
    "Ginn": 860,
    "because ": 861,
    "might ": 862,
    "hur": 863,
    "Ch": 864,
    "imp": 865,
    "who": 866,
    "door ": 867,
    "with the ": 868,
    "bu": 869,
    "they": 870,
    "there": 871,
    "pas": 872,
    "really ": 873,
    "Malfoy ": 874,
    "ant": 875,
    "with a ": 876,
    "first ": 877,
    ",\u201d he ": 878,
    "We ": 879,
    "choo": 880,
    "They ": 881,
    "people ": 882,
    "voice ": 883,
    "cour": 884,
    "te ": 885,
    "long ": 886,
    "didn\u2019t ": 887,
    "ance ": 888,
    "McG": 889,
    "ite ": 890,
    "McGon": 891,
    "McGonag": 892,
    "ate ": 893,
    ". They ": 894,
    "himself ": 895,
    "pr": 896,
    "hand ": 897,
    "try": 898,
    "was a ": 899,
    "itch ": 900,
    "body ": 901,
    "out of ": 902,
    "old ": 903,
    "Fr": 904,
    ".'\n\n": 905,
    ".'\n\n'": 906,
    "est": 907,
    "mat": 908,
    "under": 909,
    "dea": 910,
    "on his ": 911,
    "\u2019ve ": 912,
    "take ": 913,
    "you, ": 914,
    "over the ": 915,
    "udd": 916,
    "comp": 917,
    "cur": 918,
    "hal": 919,
    "Harry\u2019s ": 920,
    "s were ": 921,
    "lau": 922,
    "happen": 923,
    "!\u201d said ": 924,
    "ci": 925,
    "away ": 926,
    "ed his ": 927,
    "s to ": 928,
    "make ": 929,
    "du": 930,
    "day": 931,
    "I s": 932,
    "am ": 933,
    "left ": 934,
    "Gry": 935,
    "less ": 936,
    "too ": 937,
    "Ver": 938,
    "Gryff": 939,
    "ation": 940,
    "Voldemort ": 941,
    "ty ": 942,
    "Un": 943,
    "don't ": 944,
    "ment": 945,
    "ept ": 946,
    "nex": 947,
    "bi": 948,
    "ble": 949,
    "boo": 950,
    "Di": 951,
    "s, and ": 952,
    "for a ": 953,
    "We": 954,
    "Hagrid": 955,
    "was": 956,
    "through ": 957,
    "long": 958,
    "!\u201d\n\n\u201c": 959,
    "bea": 960,
    "ster": 961,
    "sk": 962,
    "over": 963,
    "tly ": 964,
    "en s": 965,
    "they were ": 966,
    "ment ": 967,
    "Harry's ": 968,
    "Sirius ": 969,
    "tab": 970,
    "exc": 971,
    "Th": 972,
    "In": 973,
    "jo": 974,
    "A ": 975,
    "Umb": 976,
    "must ": 977,
    "Professor McGonag": 978,
    "Umbrid": 979,
    "win": 980,
    "\n\n\u201c": 981,
    "; he ": 982,
    "trying to ": 983,
    "?'\n\n'": 984,
    "mean": 985,
    "wand": 986,
    "under ": 987,
    "e. ": 988,
    "ful ": 989,
    "toward ": 990,
    "fin": 991,
    "ning ": 992,
    "ed.\n\n\u201c": 993,
    "ross ": 994,
    "hor": 995,
    "est ": 996,
    "went ": 997,
    "good ": 998,
    "\u2019ll ": 999,
    ".\u2026": 1000,
    "put ": 1001,
    "how": 1002,
    "could": 1003,
    "tre": 1004,
    "find ": 1005,
    "pri": 1006,
    "If ": 1007,
    "something ": 1008,
    "'ve ": 1009,
    "ster ": 1010,
    "whisp": 1011,
    "She ": 1012,
    "ark ": 1013,
    "bro": 1014,
    "sil": 1015,
    "gave ": 1016,
    "Ron and ": 1017,
    "pi": 1018,
    "ves ": 1019,
    "tting ": 1020,
    "near": 1021,
    "plea": 1022,
    "gn": 1023
}